<?xml version="1.0"?>
<opencv_storage>
<cascade>
  <stageType>BOOST</stageType>
  <featureType>LBP</featureType>
  <height>30</height>
  <width>30</width>
  <stageParams>
    <boostType>GAB</boostType>
    <minHitRate>9.9900001287460327e-01</minHitRate>
    <maxFalseAlarm>2.0000000298023224e-01</maxFalseAlarm>
    <weightTrimRate>9.8000001907348633e-01</weightTrimRate>
    <maxDepth>1</maxDepth>
    <maxWeakCount>100</maxWeakCount></stageParams>
  <featureParams>
    <maxCatCount>256</maxCatCount>
    <featSize>1</featSize></featureParams>
  <stageNum>4</stageNum>
  <stages>
    <!-- stage 0 -->
    <_>
      <maxWeakCount>5</maxWeakCount>
      <stageThreshold>-1.5291160345077515e+00</stageThreshold>
      <weakClassifiers>
        <_>
          <internalNodes>
            0 -1 9 -5242881 -275775505 -707264514 -18876417 -1141899265
            -805312529 -1026 -1</internalNodes>
          <leafValues>
            -9.4938296079635620e-01 3.9231455326080322e-01</leafValues></_>
        <_>
          <internalNodes>
            0 -1 1 -2097153 -2098177 -1242827297 -851970 -3145729
            -2360321 286257663 1610602495</internalNodes>
          <leafValues>
            -9.4322830438613892e-01 5.0821232795715332e-01</leafValues></_>
        <_>
          <internalNodes>
            0 -1 12 -3146754 -1310994 -83887874 -2049 -1414791169
            -269484053 -37880355 -1</internalNodes>
          <leafValues>
            -8.9690816402435303e-01 5.7876610755920410e-01</leafValues></_>
        <_>
          <internalNodes>
            0 -1 3 -1 -2100225 -10756102 -201326593 -67108865 265272287
            1945106431 2013265919</internalNodes>
          <leafValues>
            -9.3731009960174561e-01 5.2461028099060059e-01</leafValues></_>
        <_>
          <internalNodes>
            0 -1 4 -16777217 -655363 -25692175 -15401551 -5 -1 -526849
            -134219777</internalNodes>
          <leafValues>
            -7.1564745903015137e-01 8.2256698608398438e-01</leafValues></_></weakClassifiers></_>
    <!-- stage 1 -->
    <_>
      <maxWeakCount>6</maxWeakCount>
      <stageThreshold>-2.4423751831054688e+00</stageThreshold>
      <weakClassifiers>
        <_>
          <internalNodes>
            0 -1 10 -1344307201 -2098217 -75497473 -10486923 -1343488005
            -2070 -268437517 -268437509</internalNodes>
          <leafValues>
            -8.9813101291656494e-01 2.6479145884513855e-01</leafValues></_>
        <_>
          <internalNodes>
            0 -1 20 -1073743105 -269495089 1350300415 -564144657
            -1145308161 -540021026 -14683145 -2097153</internalNodes>
          <leafValues>
            -8.7858748435974121e-01 5.0638961791992188e-01</leafValues></_>
        <_>
          <internalNodes>
            0 -1 14 -258 -269488436 -547358722 -278921377 -1114625
            -268441601 -105924388 -9</internalNodes>
          <leafValues>
            -9.0888333320617676e-01 4.8086681962013245e-01</leafValues></_>
        <_>
          <internalNodes>
            0 -1 6 -1648669701 -1030 1997732113 -8425157 -7 -4198404
            -1082131585 -184549517</internalNodes>
          <leafValues>
            -8.0994701385498047e-01 5.7825773954391479e-01</leafValues></_>
        <_>
          <internalNodes>
            0 -1 8 -67111948 -135023630 -74206209 -67111937 1267465130
            -336593925 1497094649 1610612735</internalNodes>
          <leafValues>
            -9.1445732116699219e-01 4.7879335284233093e-01</leafValues></_>
        <_>
          <internalNodes>
            0 -1 18 -71304449 -269499153 -1876951809 -568355361 -2098179
            -288629989 -570688556 -568329227</internalNodes>
          <leafValues>
            -8.0243164300918579e-01 5.7438039779663086e-01</leafValues></_></weakClassifiers></_>
    <!-- stage 2 -->
    <_>
      <maxWeakCount>6</maxWeakCount>
      <stageThreshold>-1.4505394697189331e+00</stageThreshold>
      <weakClassifiers>
        <_>
          <internalNodes>
            0 -1 15 -1075871745 -536233 -103810085 -9045157 -1348731909
            -1606 -273943557 -809502789</internalNodes>
          <leafValues>
            -8.8937407732009888e-01 1.6223648190498352e-01</leafValues></_>
        <_>
          <internalNodes>
            0 -1 11 -66050 -1074798633 -573048971 -1207961633
            -1346644489 -2097717 264229847 -258</internalNodes>
          <leafValues>
            -9.3498951196670532e-01 3.4719544649124146e-01</leafValues></_>
        <_>
          <internalNodes>
            0 -1 5 -1 -2099205 2013000691 1518329851 -1163214982
            1800400704 529006583 -564133889</internalNodes>
          <leafValues>
            -8.0514049530029297e-01 5.0379043817520142e-01</leafValues></_>
        <_>
          <internalNodes>
            0 -1 22 -4457238 -5505848 -157551886 -1 -38797317 -271844405
            1468003315 -536871425</internalNodes>
          <leafValues>
            -8.4902191162109375e-01 5.0567311048507690e-01</leafValues></_>
        <_>
          <internalNodes>
            0 -1 17 -1078984705 -273718277 -8421505 -12583489 -109053441
            -1537 2127814391 2143272925</internalNodes>
          <leafValues>
            -8.1059736013412476e-01 5.3936028480529785e-01</leafValues></_>
        <_>
          <internalNodes>
            0 -1 0 -1347689478 -134221829 -154405893 -234886146 -2097217
            -16757 -1481638913 -1207961613</internalNodes>
          <leafValues>
            -8.4516936540603638e-01 4.9467676877975464e-01</leafValues></_></weakClassifiers></_>
    <!-- stage 3 -->
    <_>
      <maxWeakCount>6</maxWeakCount>
      <stageThreshold>-1.7365223169326782e+00</stageThreshold>
      <weakClassifiers>
        <_>
          <internalNodes>
            0 -1 13 -13109313 -27788329 -552341025 -18940065 -1080295425
            -2105377 -1075838977 -74241</internalNodes>
          <leafValues>
            -9.0486532449722290e-01 5.0925925374031067e-02</leafValues></_>
        <_>
          <internalNodes>
            0 -1 7 1574961147 -536874022 -805851157 -1023410177 -7602198
            -812677174 934017011 -939524097</internalNodes>
          <leafValues>
            -8.3384424448013306e-01 3.1742432713508606e-01</leafValues></_>
        <_>
          <internalNodes>
            0 -1 19 -4731103 935313215 -203984257 -8951969 -1010859587
            -4469793 -1879048769 -1917997073</internalNodes>
          <leafValues>
            -7.6336330175399780e-01 4.6547806262969971e-01</leafValues></_>
        <_>
          <internalNodes>
            0 -1 16 -1077936129 -10557473 -35130401 1062398975
            -1342177281 -5899393 1073475519 1599078397</internalNodes>
          <leafValues>
            -7.9375022649765015e-01 4.8368528485298157e-01</leafValues></_>
        <_>
          <internalNodes>
            0 -1 21 -1142957842 -269495058 1367331566 1600115951
            -1074004487 -69477682 -71304201 -10485771</internalNodes>
          <leafValues>
            -9.4970530271530151e-01 3.7865725159645081e-01</leafValues></_>
        <_>
          <internalNodes>
            0 -1 2 -285474822 -1055040 1393652147 -767045153 -69207169
            -67372049 -15227017 -673191041</internalNodes>
          <leafValues>
            -8.2689505815505981e-01 4.0954655408859253e-01</leafValues></_></weakClassifiers></_></stages>
  <features>
    <_>
      <rect>
        4 0 6 5</rect></_>
    <_>
      <rect>
        5 6 5 7</rect></_>
    <_>
      <rect>
        6 7 2 2</rect></_>
    <_>
      <rect>
        6 10 6 3</rect></_>
    <_>
      <rect>
        7 5 3 4</rect></_>
    <_>
      <rect>
        7 9 2 2</rect></_>
    <_>
      <rect>
        8 4 3 2</rect></_>
    <_>
      <rect>
        9 8 2 2</rect></_>
    <_>
      <rect>
        10 4 6 5</rect></_>
    <_>
      <rect>
        10 13 4 3</rect></_>
    <_>
      <rect>
        11 3 3 3</rect></_>
    <_>
      <rect>
        11 8 3 7</rect></_>
    <_>
      <rect>
        11 8 5 6</rect></_>
    <_>
      <rect>
        11 9 2 4</rect></_>
    <_>
      <rect>
        11 17 3 2</rect></_>
    <_>
      <rect>
        12 3 2 3</rect></_>
    <_>
      <rect>
        14 10 1 2</rect></_>
    <_>
      <rect>
        14 13 1 1</rect></_>
    <_>
      <rect>
        14 14 2 2</rect></_>
    <_>
      <rect>
        15 2 4 4</rect></_>
    <_>
      <rect>
        15 13 2 2</rect></_>
    <_>
      <rect>
        16 12 2 2</rect></_>
    <_>
      <rect>
        16 15 2 2</rect></_></features></cascade>
</opencv_storage>
